<unk>	0
<s>	0
</s>	0
▁e	-0
▁a	-1
te	-2
de	-3
ra	-4
▁c	-5
to	-6
qu	-7
da	-8
do	-9
▁p	-10
re	-11
is	-12
▁co	-13
▁de	-14
en	-15
as	-16
or	-17
▁o	-18
▁m	-19
in	-20
ta	-21
▁s	-22
▁n	-23
an	-24
que	-25
ci	-26
el	-27
▁A	-28
▁es	-29
ar	-30
ir	-31
al	-32
nis	-33
um	-34
on	-35
▁con	-36
▁v	-37
er	-38
▁R	-39
▁T	-40
▁com	-41
men	-42
le	-43
ti	-44
▁M	-45
▁f	-46
▁pa	-47
▁re	-48
ro	-49
▁O	-50
ida	-51
ito	-52
vel	-53
▁Air	-54
▁que	-55
▁para	-56
ke	-57
▁E	-58
▁N	-59
▁no	-60
▁C	-61
▁b	-62
ike	-63
▁Nike	-64
di	-65
es	-66
▁se	-67
▁um	-68
orte	-69
▁Tnis	-70
ul	-71
▁t	-72
▁en	-73
▁su	-74
▁te	-75
99	-76
co	-77
il	-78
mp	-79
os	-80
for	-81
▁vo	-82
idade	-83
us	-84
ais	-85
ran	-86
ual	-87
▁RS	-88
▁am	-89
▁do	-90
▁em	-91
▁mu	-92
▁voc	-93
am	-94
no	-95
ri	-96
dan	-97
ino	-98
▁des	-99
▁nan	-100
▁muito	-101
▁confor	-102
og	-103
▁1	-104
▁j	-105
▁aj	-106
▁in	-107
ente	-108
▁est	-109
▁man	-110
mento	-111
▁tnis	-112
orteci	-113
ol	-114
om	-115
un	-116
lev	-117
▁ex	-118
▁qu	-119
▁Cas	-120
▁jog	-121
▁Casual	-122
▁amorteci	-123
ca	-124
ma	-125
▁S	-126
ado	-127
asc	-128
bil	-129
res	-130
ascul	-131
▁Mascul	-132
▁Masculino	-133
lo	-134
▁B	-135
▁l	-136
rno	-137
▁ao	-138
▁na	-139
▁to	-140
cion	-141
tvel	-142
▁aju	-143
▁lev	-144
▁seu	-145
▁mais	-146
bilidade	-147
▁amortecimento	-148
fe	-149
gn	-150
so	-151
▁V	-152
▁Z	-153
▁d	-154
499	-155
cel	-156
ign	-157
ita	-158
ten	-159
▁Ma	-160
▁sua	-161
mente	-162
▁confortvel	-163
ad	-164
at	-165
em	-166
fi	-167
gi	-168
ja	-169
▁2	-170
▁J	-171
▁P	-172
▁W	-173
▁i	-174
ira	-175
▁Es	-176
▁di	-177
adra	-178
onto	-179
▁Jor	-180
▁Max	-181
▁cal	-182
▁imp	-183
▁inc	-184
▁uma	-185
asque	-186
dando	-187
ranco	-188
▁esta	-189
▁jogo	-190
▁mant	-191
dicion	-192
asquete	-193
▁Branco	-194
▁Jordan	-195
▁design	-196
▁quadra	-197
00	-198
eg	-199
ha	-200
ho	-201
iv	-202
me	-203
mo	-204
tu	-205
▁4	-206
nte	-207
ode	-208
oom	-209
qui	-210
tra	-211
▁ca	-212
ando	-213
reto	-214
▁ati	-215
▁bon	-216
▁esp	-217
▁sup	-218
▁Zoom	-219
▁comp	-220
▁temp	-221
▁ajuda	-222
▁adicion	-223
▁conforto	-224
ce	-225
eu	-226
se	-227
sp	-228
ur	-229
▁F	-230
▁g	-231
anh	-232
ata	-233
ate	-234
bro	-235
car	-236
cia	-237
das	-238
elo	-239
iro	-240
ola	-241
ora	-242
sen	-243
ter	-244
uro	-245
vol	-246
▁Ex	-247
▁ir	-248
anto	-249
canh	-250
cida	-251
fere	-252
ntep	-253
uran	-254
▁ent	-255
▁pas	-256
▁per	-257
▁enqu	-258
▁este	-259
▁reto	-260
canhar	-261
cidade	-262
▁antep	-263
▁ponto	-264
▁ajudar	-265
▁bonito	-266
▁contra	-267
▁mantlo	-268
▁suporte	-269
▁enquanto	-270
▁adicionam	-271
▁calcanhar	-272
▁estabilidade	-273
49	-274
85	-275
RS	-276
ac	-277
ev	-278
he	-279
hs	-280
iz	-281
ok	-282
pe	-283
ru	-284
▁5	-285
▁7	-286
▁D	-287
▁K	-288
▁L	-289
▁Q	-290
aci	-291
cas	-292
ell	-293
ens	-294
ere	-295
ero	-296
est	-297
fun	-298
gia	-299
ine	-300
int	-301
ion	-302
lta	-303
per	-304
rao	-305
tam	-306
tar	-307
tin	-308
uma	-309
uss	-310
▁12	-311
▁Wo	-312
▁ar	-313
▁as	-314
▁bi	-315
▁da	-316
▁fe	-317
▁il	-318
▁on	-319
▁un	-320
arte	-321
atum	-322
emin	-323
line	-324
ncia	-325
pita	-326
quer	-327
rado	-328
ress	-329
rida	-330
rime	-331
tado	-332
teno	-333
tico	-334
volv	-335
▁Com	-336
▁col	-337
▁cor	-338
▁dia	-339
▁dos	-340
▁ele	-341
▁lin	-342
▁mar	-343
▁pra	-344
▁pro	-345
▁rec	-346
▁vis	-347
arvel	-348
brook	-349
ergia	-350
tende	-351
terno	-352
▁Acel	-353
▁Russ	-354
▁West	-355
▁afun	-356
▁ajus	-357
▁aqui	-358
▁esti	-359
▁ilhs	-360
▁pode	-361
▁qual	-362
▁velo	-363
ataque	-364
queira	-365
▁Femin	-366
▁Tatum	-367
▁atire	-368
▁couro	-369
▁ofere	-370
▁parte	-371
▁passo	-372
▁prime	-373
celente	-374
▁envolv	-375
▁espuma	-376
▁esteja	-377
▁manter	-378
▁marque	-379
▁pontos	-380
▁repita	-381
▁tempos	-382
Basquete	-383
▁Acelere	-384
▁Russell	-385
▁conteno	-386
▁energia	-387
▁externo	-388
▁incline	-389
▁recente	-390
▁retorno	-391
▁Feminino	-392
▁ajudando	-393
▁biqueira	-394
▁imparvel	-395
▁primeiro	-396
▁Westbrook	-397
▁afundando	-398
▁envolvente	-399
▁velocidade	-400
▁contraataque	-401
17	-402
66	-403
90	-404
ai	-405
az	-406
be	-407
et	-408
ew	-409
ga	-410
ia	-411
io	-412
lh	-413
li	-414
na	-415
oo	-416
pa	-417
tr	-418
ub	-419
ut	-420
ve	-421
xo	-422
▁3	-423
▁U	-424
000	-425
999	-426
ama	-427
bin	-428
cee	-429
cen	-430
dal	-431
end	-432
eri	-433
ess	-434
gio	-435
has	-436
hox	-437
iva	-438
les	-439
lus	-440
man	-441
osa	-442
our	-443
por	-444
rem	-445
rom	-446
tos	-447
ula	-448
ura	-449
xtu	-450
▁66	-451
▁85	-452
▁90	-453
▁AJ	-454
▁KD	-455
▁Qu	-456
▁SC	-457
▁al	-458
▁at	-459
▁au	-460
▁fi	-461
▁is	-462
▁os	-463
▁pr	-464
▁ro	-465
▁ti	-466
3499	-467
aixo	-468
amos	-469
aser	-470
azer	-471
bora	-472
cial	-473
dium	-474
enew	-475
etli	-476
fens	-477
fica	-478
inda	-479
iste	-480
izar	-481
mens	-482
ourt	-483
rvel	-484
tada	-485
talh	-486
tial	-487
unas	-488
▁Cor	-489
▁Dub	-490
▁Leg	-491
▁Seu	-492
▁Sta	-493
▁Ver	-494
▁Vis	-495
▁aca	-496
▁are	-497
▁bom	-498
▁for	-499
▁gra	-500
▁mas	-501
▁nas	-502
▁por	-503
▁tem	-504
▁tra	-505
Preto	-506
arrom	-507
bedal	-508
comen	-509
spira	-510
▁2000	-511
▁Alta	-512
▁Elev	-513
▁Esse	-514
▁Plus	-515
▁Shox	-516
▁Zero	-517
▁aque	-518
▁cons	-519
▁dese	-520
▁equi	-521
▁isso	-522
▁leve	-523
▁mode	-524
▁onde	-525
▁sint	-526
▁suas	-527
▁todo	-528
idades	-529
urante	-530
▁66499	-531
▁85499	-532
▁Court	-533
▁Essen	-534
▁Excee	-535
▁Preto	-536
▁Renew	-537
▁desta	-538
▁	-539
e	-540
a	-541
o	-542
i	-543
n	-544
r	-545
s	-546
t	-547
d	-548
m	-549
u	-550
c	-551
l	-552
p	-553
v	-554
q	-555
f	-556
b	-557
g	-558
A	-559
j	-560
9	-561
x	-562
R	-563
h	-564
S	-565
T	-566
M	-567
k	-568
E	-569
4	-570
C	-571
O	-572
N	-573
1	-574
2	-575
0	-576
B	-577
5	-578
J	-579
P	-580
z	-581
V	-582
Z	-583
3	-584
7	-585
D	-586
W	-587
8	-588
K	-589
6	-590
F	-591
I	-592
L	-593
Q	-594
U	-595
w	-596
